{
    "special_tokens": {
        "<|endoftext|>": 83
    },
    "vocab": {
        "0": "\n",
        "1": " ",
        "2": "!",
        "3": "\"",
        "4": "'",
        "5": "(",
        "6": ")",
        "7": ",",
        "8": "-",
        "9": ".",
        "10": "/",
        "11": "0",
        "12": "1",
        "13": "2",
        "14": "3",
        "15": "4",
        "16": "5",
        "17": "6",
        "18": "7",
        "19": "8",
        "20": "9",
        "21": ":",
        "22": ";",
        "23": "?",
        "24": "A",
        "25": "B",
        "26": "C",
        "27": "D",
        "28": "E",
        "29": "F",
        "30": "G",
        "31": "H",
        "32": "I",
        "33": "J",
        "34": "K",
        "35": "L",
        "36": "M",
        "37": "N",
        "38": "O",
        "39": "P",
        "40": "Q",
        "41": "R",
        "42": "S",
        "43": "T",
        "44": "U",
        "45": "V",
        "46": "W",
        "47": "X",
        "48": "Y",
        "49": "Z",
        "50": "`",
        "51": "a",
        "52": "b",
        "53": "c",
        "54": "d",
        "55": "e",
        "56": "f",
        "57": "g",
        "58": "h",
        "59": "i",
        "60": "j",
        "61": "k",
        "62": "l",
        "63": "m",
        "64": "n",
        "65": "o",
        "66": "p",
        "67": "q",
        "68": "r",
        "69": "s",
        "70": "t",
        "71": "u",
        "72": "v",
        "73": "w",
        "74": "x",
        "75": "y",
        "76": "z",
        "77": "–",
        "78": "—",
        "79": "‘",
        "80": "’",
        "81": "“",
        "82": "”",
        "83": "<|endoftext|>",
        "84": "e ",
        "85": "d ",
        "86": "th",
        "87": " a",
        "88": ". ",
        "89": "t ",
        "90": "y ",
        "91": "nd ",
        "92": "s ",
        "93": "to",
        "94": "er",
        "95": "ed ",
        "96": "the ",
        "97": ", ",
        "98": "wa",
        "99": "in",
        "100": "he ",
        "101": "to ",
        "102": " and ",
        "103": "ou",
        "104": "en",
        "105": ". T",
        "106": "ha",
        "107": " a ",
        "108": "om",
        "109": "sa",
        "110": "ar",
        "111": " the ",
        "112": "he",
        "113": "on",
        "114": "im",
        "115": ".\n",
        "116": "ll",
        "117": "g ",
        "118": "an",
        "119": "was ",
        "120": "or",
        "121": "ay",
        "122": "er ",
        "123": "it",
        "124": "id",
        "125": "re",
        "126": "pl",
        "127": "is ",
        "128": "ir",
        "129": "ed to ",
        "130": "the",
        "131": "il",
        "132": "am",
        "133": "wi",
        "134": "st",
        "135": "ri",
        "136": "lo",
        "137": "and ",
        "138": "a ",
        "139": "hey ",
        "140": ". H",
        "141": ". S",
        "142": "o ",
        "143": ". He ",
        "144": "no",
        "145": ". They ",
        "146": " h",
        "147": "at ",
        "148": "ere ",
        "149": "with",
        "150": "un",
        "151": "ing ",
        "152": "On",
        "153": "ck",
        "154": "pp",
        "155": "ver",
        "156": ". The ",
        "157": "li",
        "158": "le",
        "159": "ll ",
        "160": "\" ",
        "161": "bi",
        "162": ". She ",
        "163": ", \"",
        "164": "be",
        "165": "ut ",
        "166": "day",
        "167": "it ",
        "168": "you",
        "169": "w ",
        "170": "ok",
        "171": "om ",
        "172": "said",
        "173": "ma",
        "174": "ing",
        "175": "se",
        "176": "ld ",
        "177": "bo",
        "178": "le ",
        "179": "happ",
        "180": "do",
        "181": "end",
        "182": "ba",
        "183": "of",
        "184": "ed",
        "185": "fri",
        "186": "up",
        "187": "gh",
        "188": "ch",
        "189": "im ",
        "190": "an ",
        "191": "ay ",
        "192": "sh",
        "193": "ne",
        "194": "for",
        "195": "wan",
        "196": "very ",
        "197": "had ",
        "198": "was",
        "199": "l ",
        "200": "en ",
        "201": "ce ",
        "202": "friend",
        "203": "big ",
        "204": "said, \"",
        "205": "itt",
        "206": "Lil",
        "207": "they ",
        "208": "ve ",
        "209": "e, ",
        "210": "ro",
        "211": ".\n\n",
        "212": "ted to ",
        "213": "play",
        "214": ". I",
        "215": "not ",
        "216": "One ",
        "217": "ke ",
        "218": "ge",
        "219": "was a ",
        "220": "es",
        "221": "tim",
        "222": "at",
        "223": "'s ",
        "224": "litt",
        "225": "that ",
        "226": "car",
        "227": "little ",
        "228": "his ",
        "229": "ould ",
        "230": "id ",
        "231": "One day",
        "232": "in the ",
        "233": "nam",
        "234": "she ",
        "235": "named ",
        "236": "y and ",
        "237": "were ",
        "238": "to the ",
        "239": "ther",
        "240": "\"\n",
        "241": "ra",
        "242": "her ",
        "243": "so ",
        "244": "there ",
        "245": "ed and ",
        "246": "go",
        "247": "The ",
        "248": "play ",
        "249": "fe",
        "250": "wh",
        "251": "ent ",
        "252": "bir",
        "253": "on a ",
        "254": "you ",
        "255": "saw",
        "256": ", and ",
        "257": "re ",
        "258": "hel",
        "259": "wanted to ",
        "260": "se ",
        "261": "but ",
        "262": "ed the ",
        "263": "Once ",
        "264": "y a",
        "265": "help",
        "266": "with ",
        "267": "! ",
        "268": "I ",
        "269": "went ",
        "270": "look",
        "271": "fi",
        "272": "ound ",
        "273": " his ",
        "274": "upon a ",
        "275": "Once upon a ",
        "276": "Once upon a tim",
        "277": "ta",
        "278": "sk",
        "279": "la",
        "280": "there was a ",
        "281": ". It ",
        "282": "ca",
        "283": "fun",
        "284": "Tim ",
        "285": "s and ",
        "286": "som",
        "287": "ur",
        "288": "be ",
        "289": "Tim",
        "290": "ea",
        "291": "Lily ",
        "292": "Once upon a time, ",
        "293": ", but ",
        "294": "One day, ",
        "295": "po",
        "296": "of ",
        "297": "tre",
        "298": "toge",
        "299": "ck ",
        "300": "k ",
        "301": "st ",
        "302": "!\" ",
        "303": "par",
        "304": "ame ",
        "305": "ir ",
        "306": "et",
        "307": "m ",
        "308": " her ",
        "309": ", a ",
        "310": "my ",
        "311": "bird ",
        "312": "sm",
        "313": "was very ",
        "314": "ec",
        "315": "co",
        "316": "came ",
        "317": "fu",
        "318": "wn",
        "319": "e and ",
        "320": "gir",
        "321": ".\n\nOnce upon a time, ",
        "322": "mom",
        "323": "their ",
        "324": ". B",
        "325": "saw a ",
        "326": "ga",
        "327": "mom ",
        "328": "ter",
        "329": "Ma",
        "330": "t the ",
        "331": "new ",
        "332": "'t ",
        "333": "lov",
        "334": "Max",
        "335": "did ",
        "336": "on the ",
        "337": "ic",
        "338": "y, ",
        "339": "could ",
        "340": "is",
        "341": "ch ",
        "342": ".\"\n",
        "343": "friends",
        "344": "have ",
        "345": "um",
        "346": "played ",
        "347": "for ",
        "348": "together",
        "349": ".\" ",
        "350": "t to ",
        "351": "had a ",
        "352": ".\n\"",
        "353": "star",
        "354": "fa",
        "355": "es ",
        "356": "ough",
        "357": "ue ",
        "358": ". A",
        "359": "smil",
        "360": ". Tim ",
        "361": "can ",
        "362": "girl ",
        "363": "happy",
        "364": "ex",
        "365": "mor",
        "366": "sid",
        "367": "bu",
        "368": "lik",
        "369": "found ",
        "370": "way",
        "371": "looked ",
        "372": "Tom",
        "373": "al",
        "374": "ho",
        "375": "did not ",
        "376": "in ",
        "377": ".\n\nOnce upon a time, there was a ",
        "378": "said ",
        "379": "sto",
        "380": "ow",
        "381": "some",
        "382": ". \"",
        "383": "happy ",
        "384": "fr",
        "385": "on ",
        "386": "fel",
        "387": "boy ",
        "388": "Tom ",
        "389": "rea",
        "390": "nd",
        "391": "like ",
        "392": "thing ",
        "393": "ther ",
        "394": "You",
        "395": "out",
        "396": "hat ",
        "397": "would ",
        "398": " an",
        "399": "p ",
        "400": "od ",
        "401": "dog ",
        "402": "wor",
        "403": "toy",
        "404": "day ",
        "405": "sp",
        "406": "gr",
        "407": "ke",
        "408": "with the ",
        "409": "ball",
        "410": "el",
        "411": "make ",
        "412": "cat ",
        "413": "r ",
        "414": "Sam",
        "415": "felt ",
        "416": "dd",
        "417": "one ",
        "418": "lk",
        "419": "thing",
        "420": "of the ",
        "421": "scar",
        "422": "sma",
        "423": "sha",
        "424": "tt",
        "425": "de ",
        "426": "?\" ",
        "427": "Wh",
        "428": "go ",
        "429": "o, ",
        "430": "igh",
        "431": "see ",
        "432": "me",
        "433": "mu",
        "434": "man",
        "435": "ved ",
        "436": "loved to ",
        "437": "big",
        "438": "ent",
        "439": "though",
        "440": "One day, a ",
        "441": "started to ",
        "442": ". One day, ",
        "443": "was so ",
        "444": "park",
        "445": ". But ",
        "446": "pa",
        "447": "tr",
        "448": ".\nThe ",
        "449": "ick",
        "450": "in a ",
        "451": ".\n\n\n",
        "452": "say",
        "453": "ug",
        "454": "Mi",
        "455": "Max ",
        "456": "made ",
        "457": "tri",
        "458": "ugh",
        "459": "com",
        "460": "out ",
        "461": "arn",
        "462": "liked to ",
        "463": ", the ",
        "464": "them",
        "465": "too",
        "466": "little girl ",
        "467": "something ",
        "468": "want to ",
        "469": " are ",
        "470": "They ",
        "471": "uc",
        "472": "down",
        "473": "pu",
        "474": "with his ",
        "475": "find ",
        "476": "ell",
        "477": "box",
        "478": "gre",
        "479": "cat",
        "480": "it was ",
        "481": "op",
        "482": "friends ",
        "483": "learn",
        "484": ".\nOne day, ",
        "485": "sad",
        "486": "help ",
        "487": "ly ",
        "488": "ob",
        "489": "kno",
        "490": "toy ",
        "491": "fo",
        "492": "fun ",
        "493": "sun",
        "494": "put ",
        "495": "saw ",
        "496": "qu",
        "497": "gain",
        "498": "f ",
        "499": "hey a",
        "500": "ful ",
        "501": "use ",
        "502": "found a ",
        "503": ".\nA",
        "504": "took",
        "505": "good ",
        "506": "pre",
        "507": "will ",
        "508": "ever",
        "509": "ong",
        "510": "ver ",
        "511": "Luc",
        "512": "lived ",
        "513": "walk",
        "514": ". \n",
        "515": "low",
        "516": "ce",
        "517": "ted ",
        "518": "her",
        "519": "boy named ",
        "520": "other",
        "521": "n't ",
        "522": " and the ",
        "523": "some ",
        "524": "bird",
        "525": "pe",
        "526": ",\" ",
        "527": "tree",
        "528": "ts ",
        "529": "red ",
        "530": "back ",
        "531": "ld",
        "532": "all",
        "533": ". They a",
        "534": "en, ",
        "535": "th ",
        "536": "hom",
        "537": "od",
        "538": "Mom",
        "539": "pr",
        "540": "happy and ",
        "541": "laugh",
        "542": "gi",
        "543": "ran",
        "544": "da",
        "545": "Lily",
        "546": "when ",
        "547": "dec",
        "548": ".\n\nOne day, a ",
        "549": "your ",
        "550": "them ",
        "551": "playing ",
        "552": "sad ",
        "553": "we ",
        "554": "You ",
        "555": "ar ",
        "556": "ti",
        "557": "!\"\n",
        "558": "Ben ",
        "559": "han",
        "560": "Su",
        "561": ". I ",
        "562": "says",
        "563": "him",
        "564": "many ",
        "565": "what ",
        "566": "ill",
        "567": "small ",
        "568": "sw",
        "569": "der",
        "570": "ball ",
        "571": "na",
        "572": "too ",
        "573": "clo",
        "574": "decid",
        "575": "wat",
        "576": ". They were ",
        "577": "ask",
        "578": "ice ",
        "579": "ss",
        "580": "Spo",
        "581": "play with ",
        "582": " all ",
        "583": "ny ",
        "584": "es, ",
        "585": "Sue ",
        "586": "smiled and ",
        "587": "ed her ",
        "588": "t's ",
        "589": "back",
        "590": "who ",
        "591": "al ",
        "592": "cit",
        "593": "went to the ",
        "594": "dog",
        "595": "ump",
        "596": "ow ",
        "597": " a big ",
        "598": "cause ",
        "599": "ound",
        "600": "mo",
        "601": "di",
        "602": "became ",
        "603": "We ",
        "604": "one",
        "605": "thought ",
        "606": "on't ",
        "607": " ar",
        "608": "excit",
        "609": "because ",
        "610": "hou",
        "611": "ff",
        "612": "ed that ",
        "613": "ry ",
        "614": "ry",
        "615": "little girl named ",
        "616": "cl",
        "617": "got ",
        "618": "ways ",
        "619": "outsid",
        "620": "with her ",
        "621": "br",
        "622": "saw a big ",
        "623": "sur",
        "624": "man ",
        "625": "do ",
        "626": "pri",
        "627": "run",
        "628": "ran ",
        "629": "But ",
        "630": "ed his ",
        "631": "end ",
        "632": "decided to ",
        "633": " and said, \"",
        "634": "knew ",
        "635": "ble",
        "636": "sor",
        "637": "from",
        "638": "hear",
        "639": "sh ",
        "640": "best ",
        "641": "tried to ",
        "642": "e the ",
        "643": " al",
        "644": "big, ",
        "645": "Let",
        "646": "lu",
        "647": "cou",
        "648": "lea",
        "649": "both ",
        "650": "oud ",
        "651": "room",
        "652": "Lily and ",
        "653": "on, ",
        "654": "ard",
        "655": "more ",
        "656": "care",
        "657": "Mia ",
        "658": " ask",
        "659": "cre",
        "660": "flow",
        "661": "Sam ",
        "662": "each ",
        "663": "surpri",
        "664": "day, ",
        "665": "ju",
        "666": "insid",
        "667": "than",
        "668": "t and ",
        "669": "told ",
        "670": "Ben",
        "671": " ab",
        "672": "for a ",
        "673": "gave ",
        "674": "Let's ",
        "675": "de",
        "676": "open",
        "677": ". Tom ",
        "678": "ind ",
        "679": "can",
        "680": "pla",
        "681": ". F",
        "682": "saw the ",
        "683": " away",
        "684": "cle",
        "685": "e to ",
        "686": "hug",
        "687": "prett",
        "688": "happen",
        "689": "so",
        "690": "ly",
        "691": "did",
        "692": "up ",
        "693": "ve",
        "694": ". Lily ",
        "695": ". And ",
        "696": "jump",
        "697": "looked at ",
        "698": "fast",
        "699": "pi",
        "700": "Lucy ",
        "701": "by ",
        "702": "ful",
        "703": "shin",
        "704": "?\"\n",
        "705": ". The bird ",
        "706": "tter",
        "707": "s. They ",
        "708": "tur",
        "709": "not",
        "710": "take ",
        "711": "they a",
        "712": "imal",
        "713": "way ",
        "714": "che",
        "715": "Yes, ",
        "716": "su",
        "717": "jo",
        "718": "har",
        "719": "together ",
        "720": "An",
        "721": "happy to ",
        "722": "s, ",
        "723": "every",
        "724": "every ",
        "725": "si",
        "726": "this ",
        "727": "other ",
        "728": "its ",
        "729": "more",
        "730": "hank ",
        "731": "scared",
        "732": "fle",
        "733": "get ",
        "734": "they were ",
        "735": "Bob",
        "736": "ep",
        "737": " again",
        "738": "When ",
        "739": ". It was ",
        "740": "Can ",
        "741": "sti",
        "742": "ing and ",
        "743": "you, ",
        "744": "om that ",
        "745": "little boy named ",
        "746": "know ",
        "747": "tree ",
        "748": "old ",
        "749": "for the ",
        "750": "water",
        "751": "pped ",
        "752": "show",
        "753": "ev",
        "754": "could not ",
        "755": " all",
        "756": ". E",
        "757": "str",
        "758": "under",
        "759": "rab",
        "760": "didn't ",
        "761": "things ",
        "762": "cu",
        "763": "dy ",
        "764": "n ",
        "765": "mou",
        "766": "book",
        "767": ", but he ",
        "768": "my",
        "769": ". Th",
        "770": "bea",
        "771": "or ",
        "772": "with a ",
        "773": "ing the ",
        "774": "om that day ",
        "775": "was not ",
        "776": " him",
        "777": "uck",
        "778": "flower",
        "779": "him ",
        "780": "we",
        "781": "ong ",
        "782": "list",
        "783": "spec",
        "784": "ple ",
        "785": "me ",
        "786": "happened",
        "787": "ite ",
        "788": ". You ",
        "789": "pick",
        "790": "Thank ",
        "791": "to play ",
        "792": "each other",
        "793": "ked ",
        "794": "said, \"I ",
        "795": "war",
        "796": "bl",
        "797": "col",
        "798": "near",
        "799": "Tim and ",
        "800": "heard ",
        "801": "es and ",
        "802": "idea",
        "803": ", he ",
        "804": "tu",
        "805": "Sar",
        "806": "exp",
        "807": "ily ",
        "808": "fter",
        "809": " at the ",
        "810": "righ",
        "811": "from the ",
        "812": "park ",
        "813": "never ",
        "814": ". He wanted to ",
        "815": "if ",
        "816": "He ",
        "817": "ts of ",
        "818": "car ",
        "819": "learned that ",
        "820": "eat ",
        "821": "ble ",
        "822": "small",
        "823": "speci",
        "824": "rock",
        "825": "house",
        "826": "lots of ",
        "827": " around ",
        "828": "clim",
        "829": "and",
        "830": "friend ",
        "831": "dan",
        "832": "lled ",
        "833": "hand",
        "834": "ed, \"",
        "835": "hat",
        "836": "Da",
        "837": "don't ",
        "838": "turn",
        "839": "dre",
        "840": "ile ",
        "841": "climb",
        "842": "just ",
        "843": ". We ",
        "844": "peo",
        "845": " as ",
        "846": "squ",
        "847": "in the park",
        "848": "every day",
        "849": ".\n\n\n\n",
        "850": "nice ",
        "851": ". Sue ",
        "852": "et ",
        "853": "dden",
        "854": "fore",
        "855": "expec",
        "856": "er and ",
        "857": "'s mom ",
        "858": "Mia",
        "859": "win",
        "860": "ge ",
        "861": "el ",
        "862": ". Tim",
        "863": "us",
        "864": "laughed and ",
        "865": "ymore",
        "866": ", and the ",
        "867": "You are ",
        "868": "t, ",
        "869": "il ",
        "870": "watch",
        "871": "dad ",
        "872": "rom that day ",
        "873": "She ",
        "874": "Tom and ",
        "875": "s. He ",
        "876": "into the ",
        "877": "hea",
        "878": "then ",
        "879": ".\nThey ",
        "880": ". Max ",
        "881": "loved to play ",
        "882": "long",
        "883": "s. She ",
        "884": "fam",
        "885": "unexpec",
        "886": "up and ",
        "887": "sad and ",
        "888": "to be ",
        "889": "ed it ",
        "890": "te",
        "891": ". They played ",
        "892": "all ",
        "893": "home",
        "894": "went to ",
        "895": "fro",
        "896": "high",
        "897": "ft",
        "898": "give ",
        "899": "share ",
        "900": "hur",
        "901": "!\n",
        "902": "ep ",
        "903": ". It was a ",
        "904": "am ",
        "905": "have a ",
        "906": "Spot ",
        "907": "unexpected ",
        "908": "Jo",
        "909": "far",
        "910": "where ",
        "911": ".\n\nOnce upon a time, in a ",
        "912": ". They all ",
        "913": "uck ",
        "914": "per",
        "915": "surprise",
        "916": "kind ",
        "917": "sel",
        "918": "smiled and said, \"",
        "919": "ink",
        "920": "pretty ",
        "921": ". M",
        "922": "ed a ",
        "923": "Tim. Tim ",
        "924": "took ",
        "925": "plan",
        "926": "from ",
        "927": "even ",
        "928": "box ",
        "929": "tra",
        "930": "sun ",
        "931": "ry, ",
        "932": "made a ",
        "933": ". His ",
        "934": ", they ",
        "935": "Kitt",
        "936": "now",
        "937": " her",
        "938": "cha",
        "939": "could",
        "940": "'m ",
        "941": "lid",
        "942": "color",
        "943": "ice",
        "944": "come ",
        "945": ". The cat ",
        "946": ".\nT",
        "947": "ving ",
        "948": "something unexpected ",
        "949": "he was ",
        "950": "fin",
        "951": "mom and ",
        "952": "unt",
        "953": ", and they ",
        "954": "gard",
        "955": "ook",
        "956": " at ",
        "957": "Sue",
        "958": "s the ",
        "959": "t a ",
        "960": "something unexpected happened",
        "961": ". He was ",
        "962": "love ",
        "963": "mak",
        "964": "wn ",
        "965": ". So, ",
        "966": "dog named ",
        "967": "beau",
        "968": "bra",
        "969": "Thank you, ",
        "970": "pic",
        "971": ", so ",
        "972": ".\nBut ",
        "973": "out the ",
        "974": " always ",
        "975": "pot ",
        "976": "ic ",
        "977": "by",
        "978": "much ",
        "979": "ber",
        "980": "beauti",
        "981": "should ",
        "982": "fish ",
        "983": "good",
        "984": "feel ",
        "985": "noi",
        "986": "rom that day on, ",
        "987": "know",
        "988": "fir",
        "989": "Ja",
        "990": "s a ",
        "991": "gg",
        "992": "sky",
        "993": "slid",
        "994": "toys",
        "995": "better",
        "996": ".\nTim ",
        "997": "mag",
        "998": "still ",
        "999": "had an ",
        "1000": "blo",
        "1001": "I a",
        "1002": "kid",
        "1003": "fish",
        "1004": "nex",
        "1005": "lly ",
        "1006": "ally ",
        "1007": "hugg",
        "1008": "door",
        "1009": "smiled",
        "1010": "talk",
        "1011": "Sara",
        "1012": "t of ",
        "1013": "to a ",
        "1014": "ed a",
        "1015": "na ",
        "1016": "around ",
        "1017": "ground",
        "1018": "It ",
        "1019": "ly, ",
        "1020": "listen",
        "1021": "feel",
        "1022": "in his ",
        "1023": "to his ",
        "1024": "No, ",
        "1025": ". The dog ",
        "1026": "ru",
        "1027": "! The ",
        "1028": "luff",
        "1029": "friend, ",
        "1030": "pictu",
        "1031": "says, \"",
        "1032": "put the ",
        "1033": "shar",
        "1034": "proud ",
        "1035": "friends and ",
        "1036": "special ",
        "1037": "inside",
        "1038": "they all ",
        "1039": "oo",
        "1040": "then, ",
        "1041": "ow, ",
        "1042": "tw",
        "1043": "sof",
        "1044": "Once upon a time, there was a ",
        "1045": "d and ",
        "1046": "see the ",
        "1047": "are ",
        "1048": "Do ",
        "1049": "gu",
        "1050": "long ",
        "1051": " about ",
        "1052": "people ",
        "1053": ". They are ",
        "1054": "d. They ",
        "1055": "great ",
        "1056": "that he ",
        "1057": "Mom ",
        "1058": "cat named ",
        "1059": ". In",
        "1060": "lived in a ",
        "1061": "gam",
        "1062": "sle",
        "1063": " all day",
        "1064": "up the ",
        "1065": "ati",
        "1066": "yum",
        "1067": "was very happy",
        "1068": "it and ",
        "1069": "imals ",
        "1070": "zz",
        "1071": "that",
        "1072": "sta",
        "1073": "bear ",
        "1074": "ink ",
        "1075": "no ",
        "1076": "time",
        "1077": " hou",
        "1078": "brok",
        "1079": "ear",
        "1080": "look ",
        "1081": "lot of ",
        "1082": "things",
        "1083": "had an idea",
        "1084": "ark",
        "1085": "bun",
        "1086": "new",
        "1087": ". She was ",
        "1088": "how ",
        "1089": "in her ",
        "1090": ". When ",
        "1091": "took the ",
        "1092": "next ",
        "1093": " hom",
        "1094": "ss ",
        "1095": "imp",
        "1096": "dra",
        "1097": "to make ",
        "1098": "liked to play ",
        "1099": "irre",
        "1100": "flew ",
        "1101": "vo",
        "1102": "forest",
        "1103": ".\nAs ",
        "1104": "ous ",
        "1105": "said. \"",
        "1106": "wanted to help",
        "1107": "wha",
        "1108": "ing a ",
        "1109": "eat",
        "1110": "she",
        "1111": "brea",
        "1112": "fter ",
        "1113": "ey",
        "1114": "loud ",
        "1115": "gry",
        "1116": "thre",
        "1117": "Look",
        "1118": "I'm ",
        "1119": ".\" The ",
        "1120": "Do you ",
        "1121": "squirre",
        "1122": "kep",
        "1123": "mon",
        "1124": "jumped ",
        "1125": "near the ",
        "1126": "our ",
        "1127": "itch",
        "1128": "pain",
        "1129": "ing to ",
        "1130": "outside",
        "1131": "was sad",
        "1132": "bro",
        "1133": "house ",
        "1134": "reach",
        "1135": "ddenly, ",
        "1136": "little bird ",
        "1137": "being ",
        "1138": "thought",
        "1139": "happily ",
        "1140": "clos",
        "1141": "said, \"Yes, ",
        "1142": "gra",
        "1143": "Anna",
        "1144": "excited",
        "1145": ". N",
        "1146": "er mom ",
        "1147": "shed ",
        "1148": "played with the ",
        "1149": "she was ",
        "1150": "ight",
        "1151": "toys ",
        "1152": "loved ",
        "1153": "looked at the ",
        "1154": "cri",
        "1155": "had to ",
        "1156": "thank",
        "1157": "careful",
        "1158": "aybe ",
        "1159": "nodd",
        "1160": "always ",
        "1161": "cla",
        "1162": "need",
        "1163": "ant ",
        "1164": "ing, ",
        "1165": "girl",
        "1166": "Hi",
        "1167": "met",
        "1168": "ort",
        "1169": "an to ",
        "1170": "ty",
        "1171": ". Spot ",
        "1172": "play with the ",
        "1173": "stick",
        "1174": "d. He ",
        "1175": "tin",
        "1176": "had a big ",
        "1177": " an ",
        "1178": "girl named ",
        "1179": "lk ",
        "1180": "cry",
        "1181": "to her ",
        "1182": " after",
        "1183": "time ",
        "1184": "tter ",
        "1185": "were very ",
        "1186": "cook",
        "1187": ". She said, \"",
        "1188": "beautiful ",
        "1189": "flo",
        "1190": "tree and ",
        "1191": "walked ",
        "1192": "is a ",
        "1193": ", there was a ",
        "1194": "scared ",
        "1195": "work",
        "1196": "? ",
        "1197": "ate ",
        "1198": "down ",
        "1199": "couldn't ",
        "1200": "bear",
        "1201": "try ",
        "1202": "bug ",
        "1203": "ess",
        "1204": "blue ",
        "1205": "clean",
        "1206": "I am ",
        "1207": ". It is ",
        "1208": "fly",
        "1209": "Can I ",
        "1210": "a big ",
        "1211": "shiny ",
        "1212": "dr",
        "1213": "over",
        "1214": "the best ",
        "1215": "magic ",
        "1216": ".\nTh",
        "1217": "mem",
        "1218": "on his ",
        "1219": "doll",
        "1220": "en the ",
        "1221": ". From that day on, ",
        "1222": "fly ",
        "1223": "What ",
        "1224": "wind ",
        "1225": "! I ",
        "1226": "bit ",
        "1227": "block",
        "1228": "had lots of ",
        "1229": "town",
        "1230": "hid",
        "1231": "tou",
        "1232": "food ",
        "1233": "water ",
        "1234": "together and ",
        "1235": "yell",
        "1236": "y an",
        "1237": "opened the ",
        "1238": "kept ",
        "1239": "row",
        "1240": "off",
        "1241": "garden",
        "1242": "con",
        "1243": "story ",
        "1244": "until ",
        "1245": "cake ",
        "1246": "everyone ",
        "1247": "sunny ",
        "1248": "called ",
        "1249": " away ",
        "1250": "food",
        "1251": "Don't ",
        "1252": "did not want to ",
        "1253": " ad",
        "1254": "you can ",
        "1255": "gla",
        "1256": "enjo",
        "1257": " all the ",
        "1258": "His ",
        "1259": "bad ",
        "1260": "mi",
        "1261": "much",
        "1262": "day long",
        "1263": "green ",
        "1264": "Spot",
        "1265": "rain",
        "1266": "remem",
        "1267": "ed, ",
        "1268": "let's ",
        "1269": "two ",
        "1270": "out of the ",
        "1271": "our",
        "1272": "her mom ",
        "1273": "Kitty ",
        "1274": "it is ",
        "1275": "min",
        "1276": ". She wanted to ",
        "1277": "sat ",
        "1278": "sho",
        "1279": "heard a ",
        "1280": "fav",
        "1281": "d, ",
        "1282": ".\nLily ",
        "1283": "curi",
        "1284": ", but she ",
        "1285": ". \nThe ",
        "1286": "had many ",
        "1287": "vent",
        "1288": "came to ",
        "1289": "thought it ",
        "1290": "em",
        "1291": ". Su",
        "1292": "s to ",
        "1293": ".\"\nThe ",
        "1294": "mouse ",
        "1295": "did not know ",
        "1296": ". A ",
        "1297": "try",
        "1298": "yard",
        "1299": "that the ",
        "1300": " how ",
        "1301": "Joh",
        "1302": "s. The ",
        "1303": "rabb",
        "1304": "friends. They ",
        "1305": "found a big ",
        "1306": ". You are ",
        "1307": "brigh",
        "1308": "have to ",
        "1309": "plea",
        "1310": "et and ",
        "1311": "very",
        "1312": "back to the ",
        "1313": "ght",
        "1314": "leav",
        "1315": "Bu",
        "1316": "noise",
        "1317": "lived a ",
        "1318": "foll",
        "1319": "picked ",
        "1320": "moral ",
        "1321": "that she ",
        "1322": "Hell",
        "1323": "import",
        "1324": "strong",
        "1325": "kitch",
        "1326": " around the ",
        "1327": "wait",
        "1328": "sleep",
        "1329": "Anna ",
        "1330": "like the ",
        "1331": "on the ground",
        "1332": "dro",
        "1333": "frog ",
        "1334": ", but the ",
        "1335": "his mom ",
        "1336": "ger",
        "1337": "Bob ",
        "1338": ". They both ",
        "1339": "fell ",
        "1340": "cor",
        "1341": "beg",
        "1342": ".\nOne day, the ",
        "1343": "So, ",
        "1344": ", there ",
        "1345": "oud",
        "1346": ". Every ",
        "1347": "Fluff",
        "1348": "ous",
        "1349": "dir",
        "1350": "e, but ",
        "1351": "lived happily ",
        "1352": "fix",
        "1353": ". Mia ",
        "1354": "became good ",
        "1355": "bug",
        "1356": "he could ",
        "1357": "so much ",
        "1358": "fru",
        "1359": "under the ",
        "1360": ".\n\nOnce upon a time, there was a little girl named ",
        "1361": "favor",
        "1362": "back to ",
        "1363": "ay, ",
        "1364": "expl",
        "1365": "ily",
        "1366": "sna",
        "1367": "spo",
        "1368": "ster",
        "1369": "Lucy",
        "1370": ". Sam ",
        "1371": "in the sky",
        "1372": " and a ",
        "1373": "self",
        "1374": "explor",
        "1375": "big and ",
        "1376": "s, and ",
        "1377": " anymore",
        "1378": "wo",
        "1379": ".\n\nOnce upon a time, there was a little boy named ",
        "1380": "ty ",
        "1381": "bow",
        "1382": "beh",
        "1383": "with their ",
        "1384": ". Then, ",
        "1385": "Once upon a time ",
        "1386": "sure ",
        "1387": "place ",
        "1388": "favorite ",
        "1389": "hugged ",
        "1390": "say ",
        "1391": "wer",
        "1392": "on her ",
        "1393": "thanked ",
        "1394": "careful ",
        "1395": "toys and ",
        "1396": "yummy ",
        "1397": "ig",
        "1398": "coo",
        "1399": "One sunny ",
        "1400": "?\" The ",
        "1401": "for help",
        "1402": "ever after",
        "1403": "ted",
        "1404": "Jan",
        "1405": "I will ",
        "1406": "on it",
        "1407": "kids ",
        "1408": "played together ",
        "1409": "friend, a ",
        "1410": "met a ",
        "1411": "helped ",
        "1412": "Tim's ",
        "1413": "it to ",
        "1414": "!\" The ",
        "1415": "moral of the ",
        "1416": "there",
        "1417": "lost ",
        "1418": "hed",
        "1419": "ate",
        "1420": "Tim was ",
        "1421": "was so happy",
        "1422": " about the ",
        "1423": "saf",
        "1424": "sad because ",
        "1425": "ffer",
        "1426": "boy",
        "1427": "h ",
        "1428": "ventu",
        "1429": "having ",
        "1430": "wr",
        "1431": "worked ",
        "1432": "push",
        "1433": "then",
        "1434": "ight ",
        "1435": "behind ",
        "1436": "dad",
        "1437": "follow",
        "1438": "stay",
        "1439": ",\" said ",
        "1440": ". Lucy ",
        "1441": "his friends ",
        "1442": "e was ",
        "1443": "pon",
        "1444": "go to the ",
        "1445": "down and ",
        "1446": "found the ",
        "1447": "went to the park ",
        "1448": "can't ",
        "1449": "less",
        "1450": "moral of the story ",
        "1451": "hun",
        "1452": "safe",
        "1453": "y was ",
        "1454": ". Tim and ",
        "1455": "table",
        "1456": "floor",
        "1457": "sorry",
        "1458": "tast",
        "1459": "at the ",
        "1460": "re you ",
        "1461": "swe",
        "1462": "ll the ",
        "1463": "Hello, ",
        "1464": ", but it was ",
        "1465": "ie",
        "1466": "differ",
        "1467": "ant",
        "1468": "nice",
        "1469": "shout",
        "1470": "like to ",
        "1471": "happy. They ",
        "1472": "Do you want to ",
        "1473": "ny",
        "1474": "lived happily ever after",
        "1475": "bunny ",
        "1476": ".\nTom ",
        "1477": "ran to the ",
        "1478": "bor",
        "1479": ". Bob",
        "1480": "small hou",
        "1481": "played together",
        "1482": "picture",
        "1483": "read ",
        "1484": "let ",
        "1485": "Ju",
        "1486": "it's ",
        "1487": "began to ",
        "1488": "Hi, ",
        "1489": ". Every",
        "1490": "Mom, ",
        "1491": "rock ",
        "1492": ". He said, \"",
        "1493": "room ",
        "1494": "dy",
        "1495": "toy car",
        "1496": "we can ",
        "1497": "again",
        "1498": "won",
        "1499": "remember",
        "1500": "rough",
        "1501": "danc",
        "1502": ".\nOne day, a ",
        "1503": "ap",
        "1504": "flew",
        "1505": ". One day, he ",
        "1506": "what was ",
        "1507": "keep ",
        "1508": "went for a ",
        "1509": "brave ",
        "1510": "had lots of fun",
        "1511": "oon",
        "1512": "was very happy and ",
        "1513": "mar",
        "1514": "mis",
        "1515": "cream",
        "1516": "kitchen",
        "1517": " him ",
        "1518": "kin",
        "1519": "enjoy",
        "1520": "what to ",
        "1521": "hat's ",
        "1522": "ed it",
        "1523": "dri",
        "1524": "It's ",
        "1525": "dow",
        "1526": "cro",
        "1527": "pret",
        "1528": "est ",
        "1529": "animals ",
        "1530": "ild ",
        "1531": "prom",
        "1532": "y again",
        "1533": "cake",
        "1534": "hop",
        "1535": "hill",
        "1536": "would be ",
        "1537": "with his friends",
        "1538": "little boy named Tim ",
        "1539": "deli",
        "1540": "ddy ",
        "1541": "sorry ",
        "1542": "excited to ",
        "1543": "squirrel ",
        "1544": ": ",
        "1545": ", but they ",
        "1546": "le and ",
        "1547": "wanted ",
        "1548": ".\n\n\nOnce upon a time, there was a ",
        "1549": "said, ",
        "1550": "Look, ",
        "1551": "scared and ",
        "1552": "Jack ",
        "1553": "need to ",
        "1554": "swing",
        "1555": ". Tim was ",
        "1556": "while ",
        "1557": "had a great ",
        "1558": "truck",
        "1559": "first",
        "1560": "tail",
        "1561": "my and ",
        "1562": "ally, ",
        "1563": "show ",
        "1564": "boat",
        "1565": "ch the ",
        "1566": "time to ",
        "1567": "cast",
        "1568": "hard ",
        "1569": "came to the ",
        "1570": "goodby",
        "1571": "e. He ",
        "1572": "wel",
        "1573": "thanked the ",
        "1574": "little boy ",
        "1575": ".\nWhen ",
        "1576": "put it ",
        "1577": ". I will ",
        "1578": "outside ",
        "1579": "laug",
        "1580": "does ",
        "1581": ". They had ",
        "1582": " all day long",
        "1583": ".\n\n\nOnce upon a time ",
        "1584": "s were ",
        "1585": "ball and ",
        "1586": "te ",
        "1587": ". This ",
        "1588": "playing",
        "1589": "family ",
        "1590": ". Let's ",
        "1591": "ag",
        "1592": "Amy ",
        "1593": "down the ",
        "1594": "warm",
        "1595": "of a ",
        "1596": "high ",
        "1597": "tak",
        "1598": " any",
        "1599": "feeling ",
        "1600": ". Bu",
        "1601": ". Wh",
        "1602": "stopped ",
        "1603": " and Ben ",
        "1604": "prin",
        "1605": "Mr",
        "1606": "This ",
        "1607": "turned ",
        "1608": "surpris",
        "1609": ", she ",
        "1610": "listen ",
        "1611": "family",
        "1612": "soft ",
        "1613": "they could ",
        "1614": "became best ",
        "1615": "!\" They ",
        "1616": "think",
        "1617": "looking ",
        "1618": "! He ",
        "1619": "came and ",
        "1620": "ed their ",
        "1621": ".\n\nOnce upon a time, there was a little ",
        "1622": "he had ",
        "1623": "only ",
        "1624": "!\" said ",
        "1625": "runn",
        "1626": "sorry, ",
        "1627": "have fun",
        "1628": "sand",
        "1629": "e. They ",
        "1630": "held ",
        "1631": "ine ",
        "1632": ". In the ",
        "1633": ". But the ",
        "1634": "ci",
        "1635": "liked the ",
        "1636": "sound",
        "1637": "funny ",
        "1638": "I can ",
        "1639": "Fin",
        "1640": "to play",
        "1641": "had a lot of ",
        "1642": "Ok",
        "1643": "when he ",
        "1644": ".\" They ",
        "1645": "was too ",
        "1646": "not a ",
        "1647": "new friend",
        "1648": "bar",
        "1649": "Lily and Ben ",
        "1650": "sing",
        "1651": "din",
        "1652": "something unexpected happened. The ",
        "1653": "find a ",
        "1654": "stay ",
        "1655": "better ",
        "1656": "get the ",
        "1657": "over ",
        "1658": "make a ",
        "1659": "lli",
        "1660": "pretty",
        "1661": "maz",
        "1662": "One sunny day, ",
        "1663": "stea",
        "1664": "fl",
        "1665": "pro",
        "1666": "it. He ",
        "1667": "see",
        "1668": "walk ",
        "1669": "hurt ",
        "1670": "! It ",
        "1671": "moral of the story is ",
        "1672": "moment",
        "1673": "bed",
        "1674": "mommy ",
        "1675": "find the ",
        "1676": "wing",
        "1677": "surprised",
        "1678": "Tom. Tom ",
        "1679": ". Tom",
        "1680": ".\n\nOne day, a little girl named ",
        "1681": "was happy and ",
        "1682": "ner",
        "1683": "said, \"Thank you, ",
        "1684": "ed to the ",
        "1685": "pli",
        "1686": ".\nThen, ",
        "1687": ", and he ",
        "1688": "e. The ",
        "1689": "butter",
        "1690": "That ",
        "1691": "asked ",
        "1692": "quick",
        "1693": "were playing ",
        "1694": "In",
        "1695": "cto",
        "1696": ".\n\nOnce upon a time, there was a little boy named Tim. Tim ",
        "1697": "tire",
        "1698": "started ",
        "1699": "wall",
        "1700": "clean ",
        "1701": "es to ",
        "1702": "tea",
        "1703": "y ask",
        "1704": ".\"\nThey ",
        "1705": "flower ",
        "1706": "tell",
        "1707": " adventu",
        "1708": "what to do",
        "1709": "ready ",
        "1710": "very much",
        "1711": "stre",
        "1712": "Wow, ",
        "1713": "red ball",
        "1714": "home, ",
        "1715": "qui",
        "1716": ".\nSu",
        "1717": "Lily, ",
        "1718": "sometim",
        "1719": ", there lived a ",
        "1720": "please",
        "1721": "Sally ",
        "1722": "top",
        "1723": "home ",
        "1724": "song",
        "1725": "Her mom ",
        "1726": "rabbit ",
        "1727": "farm",
        "1728": "you are ",
        "1729": ". Everyone ",
        "1730": "ce and ",
        "1731": "them and ",
        "1732": "pull",
        "1733": ".\nWh",
        "1734": "se and ",
        "1735": ". One day, she ",
        "1736": "now ",
        "1737": "glad ",
        "1738": "swa",
        "1739": "wood",
        "1740": "says. \"",
        "1741": "Can you ",
        "1742": ". As ",
        "1743": "repli",
        "1744": "Tom, ",
        "1745": "able ",
        "1746": "duck",
        "1747": "hurt",
        "1748": "der ",
        "1749": "knew that ",
        "1750": "Lily. She ",
        "1751": "befor",
        "1752": ", so he ",
        "1753": "His mom ",
        "1754": ".\n\nOnce upon a time, there was a big ",
        "1755": "y are you ",
        "1756": "to help",
        "1757": "illy ",
        "1758": "through",
        "1759": ". W",
        "1760": "whil",
        "1761": "Dais",
        "1762": "cra",
        "1763": "soon",
        "1764": "making ",
        "1765": "on the floor",
        "1766": "hole",
        "1767": "Just ",
        "1768": " agre",
        "1769": "rac",
        "1770": "shi",
        "1771": " awa",
        "1772": "\n\n",
        "1773": "it was",
        "1774": "Sara ",
        "1775": ". Her ",
        "1776": "like a ",
        "1777": "help you ",
        "1778": " and Lily ",
        "1779": "smell",
        "1780": "with a big ",
        "1781": "fair",
        "1782": "want",
        "1783": "!\" Lily ",
        "1784": "store ",
        "1785": "top ",
        "1786": " asked ",
        "1787": "row ",
        "1788": "se, ",
        "1789": "'re ",
        "1790": "grand",
        "1791": "I want to ",
        "1792": ".\" Tim ",
        "1793": "oun",
        "1794": "walking ",
        "1795": ". They were very ",
        "1796": ".\n\n\nOnce upon a time there was a ",
        "1797": "Go",
        "1798": "grabb",
        "1799": "Tim, ",
        "1800": "wonder",
        "1801": "Don't wor",
        "1802": "asked, \"",
        "1803": "truck ",
        "1804": "to play with",
        "1805": "hone",
        "1806": "run ",
        "1807": "boat ",
        "1808": "gent",
        "1809": "sig",
        "1810": "proud of",
        "1811": "vis",
        "1812": "bla",
        "1813": "slow",
        "1814": "tiny ",
        "1815": "tto",
        "1816": "pped and ",
        "1817": "ber ",
        "1818": "ft ",
        "1819": ".\n\nOnce upon a time, in a small ",
        "1820": "window",
        "1821": "ill ",
        "1822": "nodded and ",
        "1823": "rid",
        "1824": "for a moment",
        "1825": "baby ",
        "1826": "asked her ",
        "1827": "book ",
        "1828": "heav",
        "1829": "does not ",
        "1830": "by the ",
        "1831": "cr",
        "1832": "play with it",
        "1833": "said, \"No, ",
        "1834": "hard",
        "1835": "in the water",
        "1836": "game ",
        "1837": "pur",
        "1838": "notic",
        "1839": "boy named Tim ",
        "1840": "coun",
        "1841": "w the ",
        "1842": "face",
        "1843": "wise ",
        "1844": "full ",
        "1845": "hair",
        "1846": "fire",
        "1847": "stran",
        "1848": ".\nAt the ",
        "1849": "than ",
        "1850": "ab",
        "1851": "catch ",
        "1852": "wished ",
        "1853": "help you",
        "1854": "grass",
        "1855": "nd and ",
        "1856": "pe ",
        "1857": ". P",
        "1858": "friendly ",
        "1859": "mess",
        "1860": "whi",
        "1861": ", a big ",
        "1862": ". Then ",
        "1863": "oke ",
        "1864": "she could ",
        "1865": "job",
        "1866": "for her ",
        "1867": "ed to be ",
        "1868": "took a ",
        "1869": "into a ",
        "1870": "?\"",
        "1871": "ad",
        "1872": "shared ",
        "1873": "before",
        "1874": "John ",
        "1875": "land",
        "1876": "picture ",
        "1877": "stuck ",
        "1878": "was playing ",
        "1879": "x ",
        "1880": "cooki",
        "1881": "inside the ",
        "1882": "choo",
        "1883": "they had ",
        "1884": "ran to ",
        "1885": "climbed ",
        "1886": "was happy",
        "1887": "when they ",
        "1888": "head",
        "1889": "fur",
        "1890": "mus",
        "1891": "different ",
        "1892": "yellow ",
        "1893": "Mommy ",
        "1894": "play and ",
        "1895": "tall ",
        "1896": ". They wanted to ",
        "1897": "do not ",
        "1898": "became good friends",
        "1899": "special",
        "1900": "ces",
        "1901": "looked around ",
        "1902": "want ",
        "1903": "gave the ",
        "1904": "stop",
        "1905": "sees ",
        "1906": "own",
        "1907": "tir",
        "1908": "their",
        "1909": "fter a ",
        "1910": "Don't worry, ",
        "1911": "must ",
        "1912": "was happy ",
        "1913": "was happy to ",
        "1914": "ever ",
        "1915": " home",
        "1916": ". So, he ",
        "1917": "rain ",
        "1918": ". She said ",
        "1919": ". His mom ",
        "1920": "been ",
        "1921": "ugg",
        "1922": "for his ",
        "1923": "showed ",
        "1924": "help me ",
        "1925": "time, ",
        "1926": "y. He ",
        "1927": "reali",
        "1928": "kind and ",
        "1929": "for you",
        "1930": "full of ",
        "1931": "says ",
        "1932": "pen",
        "1933": ". Suddenly, ",
        "1934": " amaz",
        "1935": "went to the park",
        "1936": "dream",
        "1937": "saw a big, ",
        "1938": ". Her mom ",
        "1939": ".\nBut then, ",
        "1940": "chan",
        "1941": "ome ",
        "1942": "wanted to help the ",
        "1943": "do you ",
        "1944": "dark",
        "1945": "keep",
        "1946": "bran",
        "1947": "when she ",
        "1948": "s.\n\"",
        "1949": "s.\n",
        "1950": "key ",
        "1951": "hor",
        "1952": "dis",
        "1953": "so much fun",
        "1954": "Lily's ",
        "1955": ". He was very ",
        "1956": "frog",
        "1957": "cold ",
        "1958": "Dad ",
        "1959": "cam",
        "1960": ". You can ",
        "1961": "mean",
        "1962": "gone",
        "1963": "day, the ",
        "1964": "didn't know ",
        "1965": "tree. The ",
        "1966": ", but it ",
        "1967": "kind",
        "1968": "stu",
        "1969": "right",
        "1970": "excited and ",
        "1971": "pond",
        "1972": "was so happy and ",
        "1973": "peopl",
        "1974": ". Bob ",
        "1975": ", and it ",
        "1976": "with his mom",
        "1977": "care ",
        "1978": "Why are you ",
        "1979": "a and ",
        "1980": "why ",
        "1981": "fini",
        "1982": "in the garden",
        "1983": "cheer",
        "1984": "it was time to ",
        "1985": "blu",
        "1986": "before ",
        "1987": "little girl",
        "1988": "” ",
        "1989": "learn ",
        "1990": "ard ",
        "1991": "think ",
        "1992": "rest",
        "1993": "into ",
        "1994": "ely ",
        "1995": "anymore",
        "1996": "curiou",
        "1997": "Li",
        "1998": "going ",
        "1999": "end of the ",
        "2000": " adventure",
        "2001": "dog named Max",
        "2002": "paint",
        "2003": "sy ",
        "2004": "ma ",
        "2005": "Can we ",
        "2006": "tru",
        "2007": "\nThe ",
        "2008": "wear",
        "2009": "fre",
        "2010": "!\" Tom ",
        "2011": "box and ",
        "2012": "went",
        "2013": "ger ",
        "2014": "b ",
        "2015": "y and the ",
        "2016": "Okay, ",
        "2017": "work ",
        "2018": "ster ",
        "2019": "s. ",
        "2020": "on and ",
        "2021": "snow",
        "2022": "ve the ",
        "2023": "Once there was a ",
        "2024": ".\nIn",
        "2025": " high",
        "2026": "all the ",
        "2027": "ark ",
        "2028": "store",
        "2029": "outside and ",
        "2030": "ed. He ",
        "2031": "e. She ",
        "2032": ". One day, they ",
        "2033": "stayed ",
        "2034": "eal",
        "2035": "lion ",
        "2036": "Tim's mom ",
        "2037": " animal",
        "2038": "each other and ",
        "2039": "mom and dad ",
        "2040": "he would ",
        "2041": "thought for a moment",
        "2042": "!\" Tim ",
        "2043": ".\nHe ",
        "2044": "que",
        "2045": "ump ",
        "2046": "word",
        "2047": "bath"
    },
    "merges": {
        "55,1": 84,
        "54,1": 85,
        "70,58": 86,
        "1,51": 87,
        "9,1": 88,
        "70,1": 89,
        "75,1": 90,
        "64,85": 91,
        "69,1": 92,
        "70,65": 93,
        "55,68": 94,
        "55,85": 95,
        "86,84": 96,
        "7,1": 97,
        "73,51": 98,
        "59,64": 99,
        "58,84": 100,
        "93,1": 101,
        "87,91": 102,
        "65,71": 103,
        "55,64": 104,
        "88,43": 105,
        "58,51": 106,
        "87,1": 107,
        "65,63": 108,
        "69,51": 109,
        "51,68": 110,
        "1,96": 111,
        "58,55": 112,
        "65,64": 113,
        "59,63": 114,
        "9,0": 115,
        "62,62": 116,
        "57,1": 117,
        "51,64": 118,
        "98,92": 119,
        "65,68": 120,
        "51,75": 121,
        "94,1": 122,
        "59,70": 123,
        "59,54": 124,
        "68,55": 125,
        "66,62": 126,
        "59,92": 127,
        "59,68": 128,
        "95,101": 129,
        "86,55": 130,
        "59,62": 131,
        "51,63": 132,
        "73,59": 133,
        "69,70": 134,
        "68,59": 135,
        "62,65": 136,
        "51,91": 137,
        "51,1": 138,
        "112,90": 139,
        "88,31": 140,
        "88,42": 141,
        "65,1": 142,
        "140,84": 143,
        "64,65": 144,
        "105,139": 145,
        "1,58": 146,
        "51,89": 147,
        "94,84": 148,
        "133,86": 149,
        "71,64": 150,
        "99,117": 151,
        "38,64": 152,
        "53,61": 153,
        "66,66": 154,
        "72,94": 155,
        "105,100": 156,
        "62,59": 157,
        "62,55": 158,
        "116,1": 159,
        "3,1": 160,
        "52,59": 161,
        "141,100": 162,
        "97,3": 163,
        "52,55": 164,
        "71,89": 165,
        "54,121": 166,
        "59,89": 167,
        "75,103": 168,
        "73,1": 169,
        "65,61": 170,
        "108,1": 171,
        "109,124": 172,
        "63,51": 173,
        "99,57": 174,
        "69,55": 175,
        "62,85": 176,
        "52,65": 177,
        "62,84": 178,
        "106,154": 179,
        "54,65": 180,
        "104,54": 181,
        "52,51": 182,
        "65,56": 183,
        "55,54": 184,
        "56,135": 185,
        "71,66": 186,
        "57,58": 187,
        "53,58": 188,
        "114,1": 189,
        "118,1": 190,
        "51,90": 191,
        "69,58": 192,
        "64,55": 193,
        "56,120": 194,
        "98,64": 195,
        "155,90": 196,
        "106,85": 197,
        "98,69": 198,
        "62,1": 199,
        "104,1": 200,
        "53,84": 201,
        "185,181": 202,
        "161,117": 203,
        "172,163": 204,
        "123,70": 205,
        "35,131": 206,
        "130,90": 207,
        "72,84": 208,
        "55,97": 209,
        "68,65": 210,
        "115,0": 211,
        "70,129": 212,
        "126,121": 213,
        "88,32": 214,
        "144,89": 215,
        "152,84": 216,
        "61,84": 217,
        "57,55": 218,
        "198,107": 219,
        "55,69": 220,
        "70,114": 221,
        "51,70": 222,
        "4,92": 223,
        "62,205": 224,
        "86,147": 225,
        "53,110": 226,
        "224,178": 227,
        "58,127": 228,
        "103,176": 229,
        "59,85": 230,
        "216,166": 231,
        "99,111": 232,
        "64,132": 233,
        "69,100": 234,
        "233,95": 235,
        "75,102": 236,
        "73,148": 237,
        "101,96": 238,
        "86,94": 239,
        "3,0": 240,
        "68,51": 241,
        "58,122": 242,
        "69,142": 243,
        "86,148": 244,
        "95,137": 245,
        "57,65": 246,
        "43,100": 247,
        "126,191": 248,
        "56,55": 249,
        "73,58": 250,
        "104,89": 251,
        "52,128": 252,
        "113,107": 253,
        "168,1": 254,
        "109,73": 255,
        "7,102": 256,
        "68,84": 257,
        "112,62": 258,
        "195,212": 259,
        "69,84": 260,
        "52,165": 261,
        "95,96": 262,
        "152,201": 263,
        "75,87": 264,
        "258,66": 265,
        "149,1": 266,
        "2,1": 267,
        "32,1": 268,
        "73,251": 269,
        "136,170": 270,
        "56,59": 271,
        "103,91": 272,
        "146,127": 273,
        "186,253": 274,
        "263,274": 275,
        "275,221": 276,
        "70,51": 277,
        "69,61": 278,
        "62,51": 279,
        "244,219": 280,
        "214,89": 281,
        "53,51": 282,
        "56,150": 283,
        "43,189": 284,
        "69,102": 285,
        "69,108": 286,
        "71,68": 287,
        "52,84": 288,
        "43,114": 289,
        "55,51": 290,
        "206,90": 291,
        "276,209": 292,
        "97,261": 293,
        "231,97": 294,
        "66,65": 295,
        "183,1": 296,
        "70,125": 297,
        "93,218": 298,
        "153,1": 299,
        "61,1": 300,
        "69,89": 301,
        "2,160": 302,
        "66,110": 303,
        "132,84": 304,
        "128,1": 305,
        "55,70": 306,
        "63,1": 307,
        "146,122": 308,
        "7,107": 309,
        "63,90": 310,
        "252,85": 311,
        "69,63": 312,
        "119,196": 313,
        "55,53": 314,
        "53,65": 315,
        "53,304": 316,
        "56,71": 317,
        "73,64": 318,
        "84,137": 319,
        "57,128": 320,
        "211,292": 321,
        "63,108": 322,
        "130,305": 323,
        "88,25": 324,
        "255,107": 325,
        "57,51": 326,
        "63,171": 327,
        "70,94": 328,
        "36,51": 329,
        "89,96": 330,
        "193,169": 331,
        "4,89": 332,
        "136,72": 333,
        "329,74": 334,
        "54,230": 335,
        "113,111": 336,
        "59,53": 337,
        "75,97": 338,
        "53,229": 339,
        "59,69": 340,
        "188,1": 341,
        "9,240": 342,
        "202,69": 343,
        "106,208": 344,
        "71,63": 345,
        "213,95": 346,
        "194,1": 347,
        "298,239": 348,
        "9,160": 349,
        "89,101": 350,
        "197,138": 351,
        "115,3": 352,
        "134,110": 353,
        "56,51": 354,
        "55,92": 355,
        "103,187": 356,
        "71,84": 357,
        "88,24": 358,
        "312,131": 359,
        "105,189": 360,
        "53,190": 361,
        "320,199": 362,
        "179,75": 363,
        "55,74": 364,
        "63,120": 365,
        "69,124": 366,
        "52,71": 367,
        "157,61": 368,
        "56,272": 369,
        "98,75": 370,
        "270,95": 371,
        "43,108": 372,
        "51,62": 373,
        "58,65": 374,
        "335,215": 375,
        "99,1": 376,
        "321,280": 377,
        "109,230": 378,
        "69,93": 379,
        "65,73": 380,
        "286,55": 381,
        "88,3": 382,
        "179,90": 383,
        "56,68": 384,
        "113,1": 385,
        "249,62": 386,
        "177,90": 387,
        "43,171": 388,
        "125,51": 389,
        "64,54": 390,
        "157,217": 391,
        "86,151": 392,
        "86,122": 393,
        "48,103": 394,
        "103,70": 395,
        "106,89": 396,
        "73,229": 397,
        "87,64": 398,
        "66,1": 399,
        "65,85": 400,
        "180,117": 401,
        "73,120": 402,
        "93,75": 403,
        "54,191": 404,
        "69,66": 405,
        "57,68": 406,
        "61,55": 407,
        "149,111": 408,
        "182,116": 409,
        "55,62": 410,
        "173,217": 411,
        "53,147": 412,
        "68,1": 413,
        "42,132": 414,
        "386,89": 415,
        "54,54": 416,
        "113,84": 417,
        "62,61": 418,
        "86,174": 419,
        "183,111": 420,
        "69,226": 421,
        "69,173": 422,
        "69,106": 423,
        "70,70": 424,
        "54,84": 425,
        "23,160": 426,
        "46,58": 427,
        "57,142": 428,
        "65,97": 429,
        "59,187": 430,
        "175,84": 431,
        "63,55": 432,
        "63,71": 433,
        "63,118": 434,
        "72,95": 435,
        "333,129": 436,
        "161,57": 437,
        "104,70": 438,
        "86,356": 439,
        "231,309": 440,
        "353,212": 441,
        "88,294": 442,
        "119,243": 443,
        "303,61": 444,
        "324,165": 445,
        "66,51": 446,
        "70,68": 447,
        "115,247": 448,
        "59,153": 449,
        "99,107": 450,
        "211,0": 451,
        "109,75": 452,
        "71,57": 453,
        "36,59": 454,
        "334,1": 455,
        "173,425": 456,
        "70,135": 457,
        "71,187": 458,
        "53,108": 459,
        "103,89": 460,
        "110,64": 461,
        "368,129": 462,
        "97,96": 463,
        "130,63": 464,
        "93,65": 465,
        "227,362": 466,
        "381,392": 467,
        "195,350": 468,
        "87,257": 469,
        "43,139": 470,
        "71,53": 471,
        "180,318": 472,
        "66,71": 473,
        "149,273": 474,
        "271,91": 475,
        "55,116": 476,
        "177,74": 477,
        "57,125": 478,
        "53,222": 479,
        "167,119": 480,
        "65,66": 481,
        "202,92": 482,
        "158,461": 483,
        "115,294": 484,
        "109,54": 485,
        "265,1": 486,
        "62,90": 487,
        "65,52": 488,
        "61,144": 489,
        "93,90": 490,
        "56,65": 491,
        "283,1": 492,
        "69,150": 493,
        "66,165": 494,
        "109,169": 495,
        "67,71": 496,
        "326,99": 497,
        "56,1": 498,
        "112,264": 499,
        "317,199": 500,
        "71,260": 501,
        "369,138": 502,
        "115,24": 503,
        "93,170": 504,
        "246,400": 505,
        "66,125": 506,
        "133,159": 507,
        "55,155": 508,
        "113,57": 509,
        "72,122": 510,
        "35,471": 511,
        "157,435": 512,
        "98,418": 513,
        "88,0": 514,
        "136,73": 515,
        "53,55": 516,
        "70,95": 517,
        "58,94": 518,
        "387,235": 519,
        "65,239": 520,
        "64,332": 521,
        "102,96": 522,
        "286,84": 523,
        "252,54": 524,
        "66,55": 525,
        "7,160": 526,
        "297,55": 527,
        "70,92": 528,
        "68,95": 529,
        "182,299": 530,
        "62,54": 531,
        "51,116": 532,
        "105,499": 533,
        "104,97": 534,
        "86,1": 535,
        "58,108": 536,
        "65,54": 537,
        "36,108": 538,
        "66,68": 539,
        "179,236": 540,
        "279,458": 541,
        "57,59": 542,
        "68,118": 543,
        "54,51": 544,
        "206,75": 545,
        "250,200": 546,
        "54,314": 547,
        "211,440": 548,
        "168,413": 549,
        "130,307": 550,
        "213,151": 551,
        "109,85": 552,
        "73,84": 553,
        "394,1": 554,
        "110,1": 555,
        "70,59": 556,
        "2,240": 557,
        "25,200": 558,
        "106,64": 559,
        "42,71": 560,
        "214,1": 561,
        "452,69": 562,
        "58,114": 563,
        "434,90": 564,
        "73,396": 565,
        "59,116": 566,
        "422,159": 567,
        "69,73": 568,
        "54,94": 569,
        "182,159": 570,
        "64,51": 571,
        "93,142": 572,
        "53,136": 573,
        "547,124": 574,
        "98,70": 575,
        "145,237": 576,
        "51,278": 577,
        "59,201": 578,
        "69,69": 579,
        "42,295": 580,
        "248,266": 581,
        "87,159": 582,
        "64,90": 583,
        "220,97": 584,
        "42,357": 585,
        "359,245": 586,
        "95,242": 587,
        "70,223": 588,
        "182,153": 589,
        "250,142": 590,
        "51,199": 591,
        "53,123": 592,
        "269,238": 593,
        "180,57": 594,
        "345,66": 595,
        "65,169": 596,
        "107,203": 597,
        "282,501": 598,
        "103,390": 599,
        "63,65": 600,
        "54,59": 601,
        "164,316": 602,
        "46,84": 603,
        "113,55": 604,
        "439,89": 605,
        "113,332": 606,
        "87,68": 607,
        "364,592": 608,
        "164,598": 609,
        "58,103": 610,
        "56,56": 611,
        "95,225": 612,
        "68,90": 613,
        "68,75": 614,
        "466,235": 615,
        "53,62": 616,
        "246,89": 617,
        "370,92": 618,
        "395,366": 619,
        "149,308": 620,
        "52,68": 621,
        "325,203": 622,
        "69,287": 623,
        "63,190": 624,
        "54,142": 625,
        "66,135": 626,
        "68,150": 627,
        "68,190": 628,
        "25,165": 629,
        "95,228": 630,
        "55,91": 631,
        "574,129": 632,
        "102,204": 633,
        "61,331": 634,
        "52,158": 635,
        "69,120": 636,
        "384,108": 637,
        "112,110": 638,
        "192,1": 639,
        "164,301": 640,
        "457,129": 641,
        "84,96": 642,
        "87,62": 643,
        "437,97": 644,
        "35,306": 645,
        "62,71": 646,
        "53,103": 647,
        "158,51": 648,
        "177,535": 649,
        "103,85": 650,
        "210,108": 651,
        "206,236": 652,
        "113,97": 653,
        "110,54": 654,
        "365,84": 655,
        "226,55": 656,
        "454,138": 657,
        "87,278": 658,
        "53,125": 659,
        "56,515": 660,
        "414,1": 661,
        "290,341": 662,
        "623,626": 663,
        "166,97": 664,
        "60,71": 665,
        "99,366": 666,
        "86,118": 667,
        "70,102": 668,
        "93,176": 669,
        "25,104": 670,
        "87,52": 671,
        "194,107": 672,
        "326,208": 673,
        "645,223": 674,
        "54,55": 675,
        "481,104": 676,
        "105,171": 677,
        "59,91": 678,
        "53,118": 679,
        "126,51": 680,
        "88,29": 681,
        "255,111": 682,
        "87,370": 683,
        "53,158": 684,
        "84,101": 685,
        "58,453": 686,
        "506,424": 687,
        "179,104": 688,
        "69,65": 689,
        "62,75": 690,
        "54,124": 691,
        "186,1": 692,
        "72,55": 693,
        "88,291": 694,
        "358,91": 695,
        "60,595": 696,
        "371,147": 697,
        "354,134": 698,
        "66,59": 699,
        "511,90": 700,
        "52,90": 701,
        "317,62": 702,
        "192,99": 703,
        "23,240": 704,
        "156,311": 705,
        "70,328": 706,
        "69,145": 707,
        "70,287": 708,
        "144,70": 709,
        "277,217": 710,
        "130,264": 711,
        "114,373": 712,
        "98,90": 713,
        "53,112": 714,
        "48,584": 715,
        "69,71": 716,
        "60,65": 717,
        "106,68": 718,
        "298,393": 719,
        "24,64": 720,
        "383,101": 721,
        "69,97": 722,
        "508,75": 723,
        "55,196": 724,
        "69,59": 725,
        "86,127": 726,
        "65,393": 727,
        "123,92": 728,
        "365,55": 729,
        "559,300": 730,
        "421,184": 731,
        "56,158": 732,
        "218,89": 733,
        "207,237": 734,
        "25,488": 735,
        "55,66": 736,
        "87,497": 737,
        "427,200": 738,
        "281,119": 739,
        "26,190": 740,
        "134,59": 741,
        "174,102": 742,
        "168,97": 743,
        "171,225": 744,
        "227,519": 745,
        "489,169": 746,
        "297,84": 747,
        "65,176": 748,
        "194,111": 749,
        "98,328": 750,
        "154,95": 751,
        "192,380": 752,
        "55,72": 753,
        "339,215": 754,
        "87,116": 755,
        "88,28": 756,
        "134,68": 757,
        "150,569": 758,
        "241,52": 759,
        "691,521": 760,
        "419,92": 761,
        "53,71": 762,
        "54,90": 763,
        "64,1": 764,
        "63,103": 765,
        "177,170": 766,
        "293,100": 767,
        "63,75": 768,
        "105,58": 769,
        "164,51": 770,
        "120,1": 771,
        "149,107": 772,
        "174,111": 773,
        "744,404": 774,
        "119,215": 775,
        "146,114": 776,
        "71,153": 777,
        "660,94": 778,
        "58,189": 779,
        "73,55": 780,
        "113,117": 781,
        "157,134": 782,
        "405,314": 783,
        "126,84": 784,
        "63,84": 785,
        "688,184": 786,
        "123,84": 787,
        "88,554": 788,
        "66,449": 789,
        "43,730": 790,
        "101,248": 791,
        "662,520": 792,
        "61,95": 793,
        "204,268": 794,
        "98,68": 795,
        "52,62": 796,
        "315,62": 797,
        "193,110": 798,
        "289,102": 799,
        "638,85": 800,
        "220,102": 801,
        "124,290": 802,
        "97,100": 803,
        "70,71": 804,
        "42,110": 805,
        "364,66": 806,
        "131,90": 807,
        "56,328": 808,
        "87,330": 809,
        "135,187": 810,
        "637,111": 811,
        "303,300": 812,
        "193,510": 813,
        "143,259": 814,
        "59,498": 815,
        "31,84": 816,
        "528,296": 817,
        "226,1": 818,
        "483,612": 819,
        "55,147": 820,
        "52,178": 821,
        "422,116": 822,
        "783,59": 823,
        "210,153": 824,
        "610,175": 825,
        "136,817": 826,
        "607,272": 827,
        "616,114": 828,
        "118,54": 829,
        "185,631": 830,
        "54,118": 831,
        "116,95": 832,
        "106,390": 833,
        "184,163": 834,
        "106,70": 835,
        "27,51": 836,
        "54,606": 837,
        "708,64": 838,
        "54,125": 839,
        "131,84": 840,
        "828,52": 841,
        "665,301": 842,
        "88,603": 843,
        "525,65": 844,
        "87,92": 845,
        "69,496": 846,
        "232,444": 847,
        "724,166": 848,
        "451,0": 849,
        "64,578": 850,
        "141,357": 851,
        "55,89": 852,
        "416,104": 853,
        "194,55": 854,
        "806,314": 855,
        "94,102": 856,
        "223,327": 857,
        "454,51": 858,
        "73,99": 859,
        "57,84": 860,
        "55,199": 861,
        "105,114": 862,
        "71,69": 863,
        "541,245": 864,
        "75,729": 865,
        "256,96": 866,
        "394,469": 867,
        "70,97": 868,
        "131,1": 869,
        "575,188": 870,
        "544,85": 871,
        "68,774": 872,
        "42,100": 873,
        "372,102": 874,
        "69,143": 875,
        "99,238": 876,
        "112,51": 877,
        "86,200": 878,
        "115,470": 879,
        "88,455": 880,
        "436,248": 881,
        "62,509": 882,
        "69,162": 883,
        "56,132": 884,
        "150,855": 885,
        "186,102": 886,
        "552,137": 887,
        "101,288": 888,
        "95,167": 889,
        "70,55": 890,
        "145,346": 891,
        "51,159": 892,
        "536,55": 893,
        "269,101": 894,
        "56,210": 895,
        "58,430": 896,
        "56,70": 897,
        "542,208": 898,
        "423,257": 899,
        "58,287": 900,
        "2,0": 901,
        "55,399": 902,
        "281,219": 903,
        "132,1": 904,
        "344,138": 905,
        "580,89": 906,
        "885,517": 907,
        "33,65": 908,
        "56,110": 909,
        "250,148": 910,
        "321,450": 911,
        "533,159": 912,
        "71,299": 913,
        "66,94": 914,
        "663,175": 915,
        "61,678": 916,
        "175,62": 917,
        "586,204": 918,
        "99,61": 919,
        "687,90": 920,
        "88,36": 921,
        "95,138": 922,
        "289,360": 923,
        "504,1": 924,
        "126,118": 925,
        "384,171": 926,
        "753,200": 927,
        "477,1": 928,
        "70,241": 929,
        "493,1": 930,
        "68,338": 931,
        "456,138": 932,
        "140,127": 933,
        "97,207": 934,
        "34,205": 935,
        "144,73": 936,
        "146,94": 937,
        "53,106": 938,
        "647,531": 939,
        "4,307": 940,
        "62,124": 941,
        "797,120": 942,
        "337,55": 943,
        "459,84": 944,
        "156,412": 945,
        "115,43": 946,
        "72,151": 947,
        "467,907": 948,
        "100,119": 949,
        "56,99": 950,
        "322,102": 951,
        "150,70": 952,
        "256,207": 953,
        "57,654": 954,
        "65,170": 955,
        "87,89": 956,
        "560,55": 957,
        "92,96": 958,
        "70,107": 959,
        "948,786": 960,
        "143,119": 961,
        "136,208": 962,
        "173,61": 963,
        "318,1": 964,
        "141,429": 965,
        "401,235": 966,
        "770,71": 967,
        "52,241": 968,
        "790,743": 969,
        "66,337": 970,
        "97,243": 971,
        "115,629": 972,
        "103,330": 973,
        "643,618": 974,
        "295,89": 975,
        "337,1": 976,
        "52,75": 977,
        "433,341": 978,
        "52,94": 979,
        "967,556": 980,
        "192,229": 981,
        "271,639": 982,
        "246,537": 983,
        "249,861": 984,
        "144,59": 985,
        "872,653": 986,
        "489,73": 987,
        "56,128": 988,
        "33,51": 989,
        "69,107": 990,
        "57,57": 991,
        "278,75": 992,
        "69,941": 993,
        "403,69": 994,
        "164,706": 995,
        "115,284": 996,
        "173,57": 997,
        "741,159": 998,
        "197,190": 999,
        "52,136": 1000,
        "32,87": 1001,
        "61,124": 1002,
        "271,192": 1003,
        "193,74": 1004,
        "116,90": 1005,
        "532,90": 1006,
        "686,57": 1007,
        "180,120": 1008,
        "359,184": 1009,
        "277,418": 1010,
        "805,51": 1011,
        "89,296": 1012,
        "93,107": 1013,
        "95,51": 1014,
        "64,138": 1015,
        "110,272": 1016,
        "406,599": 1017,
        "32,89": 1018,
        "62,338": 1019,
        "782,104": 1020,
        "249,410": 1021,
        "99,273": 1022,
        "101,228": 1023,
        "37,429": 1024,
        "156,401": 1025,
        "68,71": 1026,
        "267,247": 1027,
        "646,611": 1028,
        "202,97": 1029,
        "970,804": 1030,
        "562,163": 1031,
        "494,96": 1032,
        "423,68": 1033,
        "539,650": 1034,
        "202,285": 1035,
        "823,591": 1036,
        "666,55": 1037,
        "711,159": 1038,
        "65,65": 1039,
        "86,534": 1040,
        "380,97": 1041,
        "70,73": 1042,
        "69,183": 1043,
        "292,280": 1044,
        "85,137": 1045,
        "431,96": 1046,
        "110,84": 1047,
        "27,142": 1048,
        "57,71": 1049,
        "62,781": 1050,
        "671,460": 1051,
        "844,784": 1052,
        "533,257": 1053,
        "54,145": 1054,
        "478,147": 1055,
        "225,100": 1056,
        "36,171": 1057,
        "412,235": 1058,
        "214,64": 1059,
        "512,450": 1060,
        "57,132": 1061,
        "69,158": 1062,
        "582,166": 1063,
        "186,111": 1064,
        "222,59": 1065,
        "75,345": 1066,
        "313,363": 1067,
        "123,102": 1068,
        "712,92": 1069,
        "76,76": 1070,
        "86,222": 1071,
        "134,51": 1072,
        "164,555": 1073,
        "99,300": 1074,
        "64,142": 1075,
        "221,55": 1076,
        "146,103": 1077,
        "621,170": 1078,
        "55,110": 1079,
        "270,1": 1080,
        "136,1012": 1081,
        "419,69": 1082,
        "999,802": 1083,
        "110,61": 1084,
        "52,150": 1085,
        "193,73": 1086,
        "162,119": 1087,
        "374,169": 1088,
        "99,308": 1089,
        "88,738": 1090,
        "504,111": 1091,
        "1004,89": 1092,
        "146,108": 1093,
        "69,92": 1094,
        "114,66": 1095,
        "54,241": 1096,
        "101,411": 1097,
        "462,248": 1098,
        "128,125": 1099,
        "732,169": 1100,
        "72,65": 1101,
        "854,134": 1102,
        "503,92": 1103,
        "103,92": 1104,
        "172,382": 1105,
        "259,265": 1106,
        "73,106": 1107,
        "174,107": 1108,
        "55,222": 1109,
        "69,112": 1110,
        "52,389": 1111,
        "897,122": 1112,
        "55,75": 1113,
        "62,650": 1114,
        "406,75": 1115,
        "86,125": 1116,
        "35,955": 1117,
        "32,940": 1118,
        "349,247": 1119,
        "1048,254": 1120,
        "846,1099": 1121,
        "407,66": 1122,
        "63,113": 1123,
        "696,95": 1124,
        "798,111": 1125,
        "103,413": 1126,
        "123,188": 1127,
        "446,99": 1128,
        "151,101": 1129,
        "619,55": 1130,
        "119,485": 1131,
        "52,210": 1132,
        "610,260": 1133,
        "389,188": 1134,
        "853,1019": 1135,
        "227,311": 1136,
        "164,151": 1137,
        "439,70": 1138,
        "179,807": 1139,
        "573,69": 1140,
        "204,715": 1141,
        "57,241": 1142,
        "720,571": 1143,
        "608,184": 1144,
        "88,37": 1145,
        "122,327": 1146,
        "192,95": 1147,
        "346,408": 1148,
        "234,119": 1149,
        "430,70": 1150,
        "403,92": 1151,
        "333,95": 1152,
        "697,96": 1153,
        "53,135": 1154,
        "197,101": 1155,
        "667,61": 1156,
        "656,702": 1157,
        "121,288": 1158,
        "144,416": 1159,
        "373,618": 1160,
        "53,279": 1161,
        "193,184": 1162,
        "118,89": 1163,
        "174,97": 1164,
        "320,62": 1165,
        "31,59": 1166,
        "63,306": 1167,
        "120,70": 1168,
        "190,101": 1169,
        "70,75": 1170,
        "141,975": 1171,
        "248,408": 1172,
        "134,449": 1173,
        "54,143": 1174,
        "70,99": 1175,
        "351,203": 1176,
        "398,1": 1177,
        "362,235": 1178,
        "62,300": 1179,
        "53,614": 1180,
        "101,242": 1181,
        "87,808": 1182,
        "221,84": 1183,
        "424,122": 1184,
        "237,196": 1185,
        "315,170": 1186,
        "162,204": 1187,
        "980,500": 1188,
        "56,136": 1189,
        "297,319": 1190,
        "513,95": 1191,
        "340,107": 1192,
        "97,280": 1193,
        "421,95": 1194,
        "402,61": 1195,
        "23,1": 1196,
        "222,84": 1197,
        "472,1": 1198,
        "939,521": 1199,
        "164,110": 1200,
        "447,90": 1201,
        "367,117": 1202,
        "220,69": 1203,
        "796,357": 1204,
        "684,118": 1205,
        "1001,307": 1206,
        "281,127": 1207,
        "56,690": 1208,
        "740,268": 1209,
        "138,203": 1210,
        "703,90": 1211,
        "54,68": 1212,
        "65,155": 1213,
        "96,640": 1214,
        "997,976": 1215,
        "946,58": 1216,
        "432,63": 1217,
        "113,273": 1218,
        "180,116": 1219,
        "104,111": 1220,
        "681,986": 1221,
        "56,487": 1222,
        "46,396": 1223,
        "133,91": 1224,
        "267,268": 1225,
        "161,89": 1226,
        "1000,153": 1227,
        "197,826": 1228,
        "93,318": 1229,
        "58,124": 1230,
        "93,71": 1231,
        "491,400": 1232,
        "575,122": 1233,
        "348,102": 1234,
        "75,476": 1235,
        "264,64": 1236,
        "676,262": 1237,
        "1122,89": 1238,
        "210,73": 1239,
        "183,56": 1240,
        "954,104": 1241,
        "53,113": 1242,
        "379,613": 1243,
        "952,869": 1244,
        "282,217": 1245,
        "723,417": 1246,
        "493,583": 1247,
        "282,832": 1248,
        "87,713": 1249,
        "491,537": 1250,
        "27,606": 1251,
        "375,468": 1252,
        "87,54": 1253,
        "254,361": 1254,
        "57,279": 1255,
        "104,717": 1256,
        "755,111": 1257,
        "31,127": 1258,
        "182,85": 1259,
        "63,59": 1260,
        "433,188": 1261,
        "404,882": 1262,
        "478,200": 1263,
        "580,70": 1264,
        "241,99": 1265,
        "125,1217": 1266,
        "184,97": 1267,
        "158,588": 1268,
        "1042,142": 1269,
        "460,420": 1270,
        "103,68": 1271,
        "242,327": 1272,
        "935,90": 1273,
        "167,127": 1274,
        "63,99": 1275,
        "162,259": 1276,
        "109,89": 1277,
        "192,65": 1278,
        "800,138": 1279,
        "354,72": 1280,
        "54,97": 1281,
        "115,291": 1282,
        "762,135": 1283,
        "293,234": 1284,
        "514,247": 1285,
        "197,564": 1286,
        "72,438": 1287,
        "316,101": 1288,
        "605,167": 1289,
        "55,63": 1290,
        "141,71": 1291,
        "92,101": 1292,
        "342,247": 1293,
        "765,260": 1294,
        "375,746": 1295,
        "358,1": 1296,
        "447,75": 1297,
        "75,654": 1298,
        "225,96": 1299,
        "146,596": 1300,
        "908,58": 1301,
        "69,156": 1302,
        "759,52": 1303,
        "343,145": 1304,
        "502,203": 1305,
        "88,867": 1306,
        "52,810": 1307,
        "344,101": 1308,
        "126,290": 1309,
        "306,102": 1310,
        "155,75": 1311,
        "530,238": 1312,
        "187,70": 1313,
        "648,72": 1314,
        "25,71": 1315,
        "985,175": 1316,
        "512,138": 1317,
        "491,116": 1318,
        "789,95": 1319,
        "365,591": 1320,
        "225,234": 1321,
        "31,476": 1322,
        "1095,1168": 1323,
        "757,509": 1324,
        "61,1127": 1325,
        "827,96": 1326,
        "98,123": 1327,
        "1062,736": 1328,
        "720,1015": 1329,
        "391,96": 1330,
        "336,1017": 1331,
        "54,210": 1332,
        "895,117": 1333,
        "293,96": 1334,
        "228,327": 1335,
        "57,94": 1336,
        "735,1": 1337,
        "145,649": 1338,
        "249,159": 1339,
        "53,120": 1340,
        "164,57": 1341,
        "484,96": 1342,
        "42,429": 1343,
        "97,244": 1344,
        "103,54": 1345,
        "756,196": 1346,
        "29,1028": 1347,
        "103,69": 1348,
        "54,128": 1349,
        "209,261": 1350,
        "512,1139": 1351,
        "271,74": 1352,
        "88,657": 1353,
        "602,505": 1354,
        "367,57": 1355,
        "100,339": 1356,
        "243,978": 1357,
        "384,71": 1358,
        "758,111": 1359,
        "377,615": 1360,
        "1280,120": 1361,
        "530,101": 1362,
        "121,97": 1363,
        "364,126": 1364,
        "131,75": 1365,
        "69,571": 1366,
        "69,295": 1367,
        "134,94": 1368,
        "511,75": 1369,
        "141,904": 1370,
        "232,992": 1371,
        "102,138": 1372,
        "917,56": 1373,
        "1364,120": 1374,
        "437,102": 1375,
        "69,256": 1376,
        "398,865": 1377,
        "73,65": 1378,
        "377,745": 1379,
        "70,90": 1380,
        "177,73": 1381,
        "164,58": 1382,
        "266,323": 1383,
        "769,534": 1384,
        "276,84": 1385,
        "716,257": 1386,
        "680,201": 1387,
        "1361,787": 1388,
        "1007,95": 1389,
        "109,90": 1390,
        "73,94": 1391,
        "113,308": 1392,
        "667,793": 1393,
        "656,500": 1394,
        "403,285": 1395,
        "1066,310": 1396,
        "59,57": 1397,
        "315,65": 1398,
        "216,1247": 1399,
        "426,247": 1400,
        "347,265": 1401,
        "508,1182": 1402,
        "70,184": 1403,
        "33,118": 1404,
        "268,507": 1405,
        "385,123": 1406,
        "1002,92": 1407,
        "346,719": 1408,
        "202,309": 1409,
        "1167,107": 1410,
        "265,95": 1411,
        "289,223": 1412,
        "167,101": 1413,
        "302,247": 1414,
        "1320,420": 1415,
        "239,55": 1416,
        "136,301": 1417,
        "112,54": 1418,
        "222,55": 1419,
        "284,119": 1420,
        "443,363": 1421,
        "671,973": 1422,
        "109,56": 1423,
        "552,609": 1424,
        "611,94": 1425,
        "177,75": 1426,
        "58,1": 1427,
        "1287,71": 1428,
        "106,947": 1429,
        "73,68": 1430,
        "402,793": 1431,
        "473,192": 1432,
        "86,104": 1433,
        "430,89": 1434,
        "1382,678": 1435,
        "544,54": 1436,
        "1318,380": 1437,
        "134,121": 1438,
        "526,378": 1439,
        "88,700": 1440,
        "228,482": 1441,
        "84,119": 1442,
        "66,113": 1443,
        "428,238": 1444,
        "472,102": 1445,
        "369,96": 1446,
        "593,812": 1447,
        "679,332": 1448,
        "158,579": 1449,
        "1415,1243": 1450,
        "58,150": 1451,
        "109,249": 1452,
        "90,119": 1453,
        "862,102": 1454,
        "277,635": 1455,
        "1189,120": 1456,
        "636,614": 1457,
        "277,134": 1458,
        "147,96": 1459,
        "257,254": 1460,
        "568,55": 1461,
        "116,111": 1462,
        "1322,429": 1463,
        "293,480": 1464,
        "59,55": 1465,
        "601,1425": 1466,
        "118,70": 1467,
        "64,943": 1468,
        "192,395": 1469,
        "391,101": 1470,
        "363,145": 1471,
        "1120,468": 1472,
        "64,75": 1473,
        "1351,1402": 1474,
        "1085,583": 1475,
        "115,388": 1476,
        "628,238": 1477,
        "52,120": 1478,
        "324,488": 1479,
        "822,1077": 1480,
        "346,348": 1481,
        "1030,125": 1482,
        "389,85": 1483,
        "158,89": 1484,
        "33,71": 1485,
        "123,223": 1486,
        "1341,1169": 1487,
        "1166,97": 1488,
        "756,1311": 1489,
        "538,97": 1490,
        "210,299": 1491,
        "143,204": 1492,
        "210,171": 1493,
        "54,75": 1494,
        "490,226": 1495,
        "553,361": 1496,
        "51,497": 1497,
        "73,113": 1498,
        "1266,979": 1499,
        "68,356": 1500,
        "831,53": 1501,
        "115,440": 1502,
        "51,66": 1503,
        "732,73": 1504,
        "442,100": 1505,
        "565,119": 1506,
        "407,902": 1507,
        "269,672": 1508,
        "968,208": 1509,
        "1228,283": 1510,
        "65,113": 1511,
        "313,540": 1512,
        "63,110": 1513,
        "63,340": 1514,
        "659,132": 1515,
        "1325,104": 1516,
        "146,189": 1517,
        "61,99": 1518,
        "1256,75": 1519,
        "1107,350": 1520,
        "106,588": 1521,
        "95,123": 1522,
        "54,135": 1523,
        "32,588": 1524,
        "180,73": 1525,
        "53,210": 1526,
        "506,70": 1527,
        "220,89": 1528,
        "118,1069": 1529,
        "131,85": 1530,
        "539,108": 1531,
        "264,497": 1532,
        "282,407": 1533,
        "374,66": 1534,
        "58,566": 1535,
        "397,288": 1536,
        "474,343": 1537,
        "745,284": 1538,
        "675,157": 1539,
        "416,90": 1540,
        "636,613": 1541,
        "608,129": 1542,
        "1121,199": 1543,
        "21,1": 1544,
        "293,207": 1545,
        "178,137": 1546,
        "195,517": 1547,
        "451,1044": 1548,
        "172,97": 1549,
        "1117,97": 1550,
        "421,245": 1551,
        "989,299": 1552,
        "193,129": 1553,
        "568,174": 1554,
        "360,119": 1555,
        "250,840": 1556,
        "351,1055": 1557,
        "447,777": 1558,
        "988,134": 1559,
        "277,131": 1560,
        "63,236": 1561,
        "532,338": 1562,
        "192,596": 1563,
        "177,222": 1564,
        "188,111": 1565,
        "221,685": 1566,
        "282,134": 1567,
        "718,85": 1568,
        "316,238": 1569,
        "983,977": 1570,
        "55,143": 1571,
        "73,410": 1572,
        "1156,262": 1573,
        "227,387": 1574,
        "115,738": 1575,
        "494,167": 1576,
        "561,507": 1577,
        "619,84": 1578,
        "279,453": 1579,
        "180,355": 1580,
        "145,197": 1581,
        "582,1262": 1582,
        "451,1385": 1583,
        "92,237": 1584,
        "409,102": 1585,
        "70,84": 1586,
        "105,228": 1587,
        "213,174": 1588,
        "884,807": 1589,
        "88,674": 1590,
        "51,57": 1591,
        "24,310": 1592,
        "472,111": 1593,
        "795,63": 1594,
        "183,107": 1595,
        "896,1": 1596,
        "277,61": 1597,
        "398,75": 1598,
        "1021,151": 1599,
        "324,71": 1600,
        "88,427": 1601,
        "379,751": 1602,
        "102,558": 1603,
        "539,99": 1604,
        "36,68": 1605,
        "43,228": 1606,
        "838,95": 1607,
        "663,69": 1608,
        "97,234": 1609,
        "782,200": 1610,
        "884,1365": 1611,
        "1043,89": 1612,
        "207,339": 1613,
        "602,640": 1614,
        "302,470": 1615,
        "86,919": 1616,
        "270,151": 1617,
        "267,816": 1618,
        "316,137": 1619,
        "95,323": 1620,
        "377,227": 1621,
        "100,197": 1622,
        "113,487": 1623,
        "302,378": 1624,
        "627,64": 1625,
        "636,931": 1626,
        "344,283": 1627,
        "109,390": 1628,
        "55,145": 1629,
        "112,176": 1630,
        "99,84": 1631,
        "1059,111": 1632,
        "445,96": 1633,
        "53,59": 1634,
        "368,262": 1635,
        "69,599": 1636,
        "283,583": 1637,
        "268,361": 1638,
        "29,99": 1639,
        "101,213": 1640,
        "351,1081": 1641,
        "38,61": 1642,
        "546,100": 1643,
        "349,470": 1644,
        "119,572": 1645,
        "709,107": 1646,
        "331,202": 1647,
        "52,110": 1648,
        "652,558": 1649,
        "69,174": 1650,
        "54,99": 1651,
        "960,156": 1652,
        "475,138": 1653,
        "134,191": 1654,
        "164,1184": 1655,
        "218,330": 1656,
        "65,510": 1657,
        "411,138": 1658,
        "116,59": 1659,
        "687,75": 1660,
        "173,76": 1661,
        "1399,664": 1662,
        "134,290": 1663,
        "56,62": 1664,
        "66,210": 1665,
        "123,143": 1666,
        "175,55": 1667,
        "98,1179": 1668,
        "900,89": 1669,
        "267,1018": 1670,
        "1450,127": 1671,
        "322,438": 1672,
        "164,54": 1673,
        "322,310": 1674,
        "475,96": 1675,
        "73,174": 1676,
        "915,54": 1677,
        "372,677": 1678,
        "105,108": 1679,
        "548,615": 1680,
        "119,540": 1681,
        "64,94": 1682,
        "204,969": 1683,
        "129,96": 1684,
        "126,59": 1685,
        "1216,534": 1686,
        "256,100": 1687,
        "55,156": 1688,
        "367,706": 1689,
        "43,396": 1690,
        "577,95": 1691,
        "496,449": 1692,
        "237,551": 1693,
        "32,64": 1694,
        "53,93": 1695,
        "1379,923": 1696,
        "556,125": 1697,
        "353,517": 1698,
        "98,116": 1699,
        "684,190": 1700,
        "355,101": 1701,
        "70,290": 1702,
        "264,278": 1703,
        "342,470": 1704,
        "660,122": 1705,
        "70,476": 1706,
        "1253,1428": 1707,
        "1520,180": 1708,
        "389,763": 1709,
        "196,1261": 1710,
        "134,125": 1711,
        "46,1041": 1712,
        "529,409": 1713,
        "536,209": 1714,
        "496,59": 1715,
        "115,560": 1716,
        "206,338": 1717,
        "381,221": 1718,
        "1344,1317": 1719,
        "1309,175": 1720,
        "42,1006": 1721,
        "93,66": 1722,
        "536,84": 1723,
        "69,509": 1724,
        "31,1146": 1725,
        "759,1226": 1726,
        "909,63": 1727,
        "168,469": 1728,
        "1489,417": 1729,
        "201,137": 1730,
        "464,102": 1731,
        "473,116": 1732,
        "115,427": 1733,
        "260,137": 1734,
        "442,234": 1735,
        "144,169": 1736,
        "1255,85": 1737,
        "69,98": 1738,
        "1378,537": 1739,
        "562,382": 1740,
        "740,254": 1741,
        "358,92": 1742,
        "125,1685": 1743,
        "372,97": 1744,
        "51,821": 1745,
        "54,777": 1746,
        "900,70": 1747,
        "54,122": 1748,
        "634,225": 1749,
        "545,162": 1750,
        "164,194": 1751,
        "971,100": 1752,
        "1258,327": 1753,
        "377,203": 1754,
        "264,1460": 1755,
        "101,265": 1756,
        "566,90": 1757,
        "86,1500": 1758,
        "88,46": 1759,
        "250,131": 1760,
        "836,340": 1761,
        "53,241": 1762,
        "689,113": 1763,
        "963,151": 1764,
        "336,1456": 1765,
        "374,158": 1766,
        "1485,301": 1767,
        "87,478": 1768,
        "241,53": 1769,
        "192,59": 1770,
        "87,98": 1771,
        "0,0": 1772,
        "167,198": 1773,
        "805,138": 1774,
        "140,122": 1775,
        "391,138": 1776,
        "486,254": 1777,
        "102,291": 1778,
        "312,476": 1779,
        "149,597": 1780,
        "354,128": 1781,
        "195,70": 1782,
        "302,291": 1783,
        "379,257": 1784,
        "93,399": 1785,
        "658,95": 1786,
        "210,169": 1787,
        "175,97": 1788,
        "4,257": 1789,
        "406,829": 1790,
        "268,468": 1791,
        "349,284": 1792,
        "103,64": 1793,
        "513,151": 1794,
        "576,196": 1795,
        "1583,280": 1796,
        "30,65": 1797,
        "57,1303": 1798,
        "289,97": 1799,
        "1498,569": 1800,
        "1251,402": 1801,
        "577,834": 1802,
        "447,913": 1803,
        "791,149": 1804,
        "58,604": 1805,
        "627,1": 1806,
        "177,147": 1807,
        "57,438": 1808,
        "725,57": 1809,
        "1034,183": 1810,
        "72,340": 1811,
        "52,279": 1812,
        "69,515": 1813,
        "1175,90": 1814,
        "70,93": 1815,
        "154,245": 1816,
        "52,122": 1817,
        "56,89": 1818,
        "911,567": 1819,
        "859,1525": 1820,
        "59,159": 1821,
        "1159,245": 1822,
        "68,124": 1823,
        "672,1672": 1824,
        "182,701": 1825,
        "577,587": 1826,
        "766,1": 1827,
        "877,72": 1828,
        "1580,215": 1829,
        "701,96": 1830,
        "53,68": 1831,
        "581,123": 1832,
        "204,1024": 1833,
        "718,54": 1834,
        "232,750": 1835,
        "57,304": 1836,
        "66,287": 1837,
        "709,337": 1838,
        "519,284": 1839,
        "647,64": 1840,
        "73,111": 1841,
        "354,516": 1842,
        "133,260": 1843,
        "317,159": 1844,
        "106,128": 1845,
        "271,125": 1846,
        "134,543": 1847,
        "503,330": 1848,
        "86,190": 1849,
        "51,52": 1850,
        "479,341": 1851,
        "133,1147": 1852,
        "486,168": 1853,
        "1142,579": 1854,
        "91,137": 1855,
        "66,84": 1856,
        "88,39": 1857,
        "202,487": 1858,
        "63,1203": 1859,
        "250,59": 1860,
        "309,203": 1861,
        "769,200": 1862,
        "170,84": 1863,
        "234,339": 1864,
        "60,488": 1865,
        "194,308": 1866,
        "129,288": 1867,
        "504,107": 1868,
        "99,1013": 1869,
        "23,3": 1870,
        "51,54": 1871,
        "423,529": 1872,
        "164,854": 1873,
        "1301,764": 1874,
        "62,829": 1875,
        "1030,257": 1876,
        "134,913": 1877,
        "119,551": 1878,
        "74,1": 1879,
        "1186,59": 1880,
        "666,642": 1881,
        "188,1039": 1882,
        "207,197": 1883,
        "628,101": 1884,
        "841,95": 1885,
        "119,363": 1886,
        "546,207": 1887,
        "877,54": 1888,
        "56,287": 1889,
        "433,69": 1890,
        "1466,251": 1891,
        "1235,596": 1892,
        "538,310": 1893,
        "213,102": 1894,
        "277,159": 1895,
        "145,259": 1896,
        "625,215": 1897,
        "1354,343": 1898,
        "823,373": 1899,
        "53,220": 1900,
        "371,1016": 1901,
        "195,89": 1902,
        "673,96": 1903,
        "379,66": 1904,
        "175,355": 1905,
        "65,318": 1906,
        "70,128": 1907,
        "130,128": 1908,
        "808,107": 1909,
        "1801,931": 1910,
        "433,301": 1911,
        "119,383": 1912,
        "119,721": 1913,
        "55,510": 1914,
        "1093,55": 1915,
        "965,100": 1916,
        "241,376": 1917,
        "162,378": 1918,
        "933,327": 1919,
        "164,200": 1920,
        "453,57": 1921,
        "194,273": 1922,
        "752,95": 1923,
        "486,785": 1924,
        "221,209": 1925,
        "75,143": 1926,
        "389,157": 1927,
        "916,137": 1928,
        "347,168": 1929,
        "1844,296": 1930,
        "452,92": 1931,
        "66,104": 1932,
        "1291,1135": 1933,
        "87,1661": 1934,
        "593,444": 1935,
        "839,132": 1936,
        "325,644": 1937,
        "140,1146": 1938,
        "972,1040": 1939,
        "53,559": 1940,
        "108,84": 1941,
        "1106,111": 1942,
        "625,254": 1943,
        "54,1084": 1944,
        "407,736": 1945,
        "52,543": 1946,
        "546,234": 1947,
        "69,352": 1948,
        "69,115": 1949,
        "407,90": 1950,
        "58,120": 1951,
        "54,340": 1952,
        "1357,283": 1953,
        "545,223": 1954,
        "143,313": 1955,
        "895,57": 1956,
        "315,176": 1957,
        "836,85": 1958,
        "53,132": 1959,
        "788,361": 1960,
        "432,118": 1961,
        "57,604": 1962,
        "166,463": 1963,
        "760,746": 1964,
        "527,156": 1965,
        "293,167": 1966,
        "1518,54": 1967,
        "134,71": 1968,
        "810,70": 1969,
        "608,245": 1970,
        "1443,54": 1971,
        "443,540": 1972,
        "844,126": 1973,
        "1479,1": 1974,
        "256,167": 1975,
        "474,322": 1976,
        "226,84": 1977,
        "427,1755": 1978,
        "51,102": 1979,
        "250,90": 1980,
        "950,59": 1981,
        "232,1241": 1982,
        "714,94": 1983,
        "480,1566": 1984,
        "52,646": 1985,
        "1751,84": 1986,
        "227,1165": 1987,
        "82,1": 1988,
        "483,1": 1989,
        "110,85": 1990,
        "86,1074": 1991,
        "125,134": 1992,
        "99,101": 1993,
        "410,90": 1994,
        "118,865": 1995,
        "1283,103": 1996,
        "35,59": 1997,
        "246,151": 1998,
        "631,420": 1999,
        "1707,125": 2000,
        "966,334": 2001,
        "1128,70": 2002,
        "69,90": 2003,
        "63,138": 2004,
        "740,553": 2005,
        "447,71": 2006,
        "0,247": 2007,
        "780,110": 2008,
        "56,125": 2009,
        "302,388": 2010,
        "477,102": 2011,
        "73,438": 2012,
        "57,122": 2013,
        "52,1": 2014,
        "236,96": 2015,
        "1642,1363": 2016,
        "402,300": 2017,
        "134,122": 2018,
        "69,88": 2019,
        "113,102": 2020,
        "69,936": 2021,
        "208,96": 2022,
        "263,280": 2023,
        "115,1694": 2024,
        "146,430": 2025,
        "532,111": 2026,
        "110,300": 2027,
        "379,125": 2028,
        "619,319": 2029,
        "184,143": 2030,
        "55,162": 2031,
        "442,207": 2032,
        "1438,95": 2033,
        "290,62": 2034,
        "157,385": 2035,
        "289,857": 2036,
        "398,712": 2037,
        "792,102": 2038,
        "951,871": 2039,
        "100,397": 2040,
        "605,1824": 2041,
        "302,284": 2042,
        "115,816": 2043,
        "496,55": 2044,
        "345,399": 2045,
        "402,54": 2046,
        "182,86": 2047
    }
}